TRT-100700-EntropyCalibration2
images: 3bf80000
/model.0/conv/Conv_output_0: 3e4d7b4a
/model.0/act/Sigmoid_output_0: 3c010a14
/model.0/act/Mul_output_0: 3e0d7b2f
/model.1/conv/Conv_output_0: 3e9e1951
/model.1/act/Sigmoid_output_0: 3c010a14
/model.1/act/Mul_output_0: 3e10fe0f
/model.2/cv1/conv/Conv_output_0: 3e110494
/model.2/cv1/act/Sigmoid_output_0: 3c0068d2
/model.2/cv1/act/Mul_output_0: 3d40f950
/model.23/cv3.1/cv3.1.1/cv3.1.1.0/act/Mul_output_0: 3d0fecfe
/model.23/dfl/Reshape_output_0: 3dadacdf
/model.22/m.0/cv1/act/Mul_output_0: 3ca3cd99
/model.23/cv3.2/cv3.2.0/cv3.2.0.0/conv/Conv_output_0: 3ce619d9
/model.23/cv2.2/cv2.2.0/conv/Conv_output_0: 3d7f5f95
/model.22/m.0/m/m.0/cv2/conv/Conv_output_0: 3d4b248c
/model.2/Split_output_0: 3d40f950
ONNXTRT_Broadcast_391_output: 3e810a14
/model.23/Squeeze_2_output_0_output: 3e810a14
/model.23/dfl/Transpose_output_0: 3dadacdf
/model.2/Split_output_1: 3d425fed
/model.2/m.0/cv1/conv/Conv_output_0: 3d25395b
/model.2/m.0/cv2/conv/Conv_output_0: 3dc4e613
/model.2/m.0/cv1/act/Sigmoid_output_0: 3bfaabbe
/model.2/m.0/cv2/act/Sigmoid_output_0: 3bfc853b
/model.2/m.0/cv1/act/Mul_output_0: 3ca4df75
/model.2/m.0/cv2/act/Mul_output_0: 3c0fa482
/model.2/m.0/m/m.0/cv1/conv/Conv_output_0: 3d41c9bb
/model.2/m.0/m/m.0/cv1/act/Sigmoid_output_0: 3bff2309
/model.2/m.0/m/m.0/cv1/act/Mul_output_0: 3ce62597
/model.2/m.0/m/m.0/cv2/conv/Conv_output_0: 3d10d394
/model.2/m.0/m/m.0/cv2/act/Sigmoid_output_0: 3bff86c3
/model.2/m.0/m/m.0/cv2/act/Mul_output_0: 3d1022d5
/model.2/m.0/m/m.0/Add_output_0: 3d33f894
/model.2/m.0/m/m.1/cv1/conv/Conv_output_0: 3d1a2a1a
/model.2/m.0/m/m.1/cv1/act/Sigmoid_output_0: 3bf8dd57
/model.2/m.0/m/m.1/cv1/act/Mul_output_0: 3ca37ffa
/model.2/m.0/m/m.1/cv2/conv/Conv_output_0: 3d201faa
/model.2/m.0/m/m.1/cv2/act/Sigmoid_output_0: 3c099b88
/model.2/m.0/m/m.1/cv2/act/Mul_output_0: 3ce6844e
/model.2/m.0/m/m.1/Add_output_0: 3d7a513e
/model.2/m.0/Concat_output_0: 3d65f19f
/model.2/m.0/cv3/conv/Conv_output_0: 3d82261a
/model.2/m.0/cv3/act/Sigmoid_output_0: 3c0109f1
/model.2/m.0/cv3/act/Mul_output_0: 3d67d1ac
/model.2/Concat_output_0: 3d40f950
/model.2/cv2/conv/Conv_output_0: 3dbbdbb5
/model.2/cv2/act/Sigmoid_output_0: 3bf969f9
/model.2/cv2/act/Mul_output_0: 3c66158c
/model.3/conv/Conv_output_0: 3d48f8cd
/model.3/act/Sigmoid_output_0: 3c01d72e
/model.3/act/Mul_output_0: 3c527448
/model.4/cv1/conv/Conv_output_0: 3d39d426
/model.4/cv1/act/Sigmoid_output_0: 3c027f7c
/model.4/cv1/act/Mul_output_0: 3cb1f671
/model.23/cv2.2/cv2.2.1/act/Mul_output_0: 3e146e05
/model.22/m.0/m/m.0/Add_output_0: 3d3f8fe8
/model.22/m.0/cv1/act/Sigmoid_output_0: 3c010b4b
/model.23/ConstantOfShape_2_output_0: 0
/model.23/Reshape_19_output_0: 3e1d4449
(Unnamed Layer* 804) [Constant]_output: 0
/model.4/Split_output_0: 3cc143b4
/model.23/Range_2_output_0: 3e9d4449
ONNXTRT_ShapeShuffle_386_output: 0
/model.23/Unsqueeze_11_output_0: 3e9f4871
/model.4/Split_output_1: 3cb1f671
/model.4/m.0/cv1/conv/Conv_output_0: 3cdbbf65
/model.4/m.0/cv2/conv/Conv_output_0: 3d19211c
/model.4/m.0/cv1/act/Sigmoid_output_0: 3c000d6b
/model.4/m.0/cv2/act/Sigmoid_output_0: 3bfe6df9
/model.4/m.0/cv1/act/Mul_output_0: 3c990cc7
/model.4/m.0/cv2/act/Mul_output_0: 3cc06906
/model.4/m.0/m/m.0/cv1/conv/Conv_output_0: 3d4e5c0f
/model.4/m.0/m/m.0/cv1/act/Sigmoid_output_0: 3bfe3dd3
/model.4/m.0/m/m.0/cv1/act/Mul_output_0: 3c667c37
/model.4/m.0/m/m.0/cv2/conv/Conv_output_0: 3d06aebc
/model.4/m.0/m/m.0/cv2/act/Sigmoid_output_0: 3bfe6ccd
/model.4/m.0/m/m.0/cv2/act/Mul_output_0: 3cd1401a
/model.4/m.0/m/m.0/Add_output_0: 3cea123d
/model.4/m.0/m/m.1/cv1/conv/Conv_output_0: 3d40872a
/model.4/m.0/m/m.1/cv1/act/Sigmoid_output_0: 3bf9bdd7
/model.4/m.0/m/m.1/cv1/act/Mul_output_0: 3c14c1b8
/model.4/m.0/m/m.1/cv2/conv/Conv_output_0: 3d76bfea
/model.4/m.0/m/m.1/cv2/act/Sigmoid_output_0: 3c010481
/model.4/m.0/m/m.1/cv2/act/Mul_output_0: 3d665fee
/model.4/m.0/m/m.1/Add_output_0: 3d88deda
/model.4/m.0/Concat_output_0: 3d41e58c
/model.4/m.0/cv3/conv/Conv_output_0: 3d43a148
/model.4/m.0/cv3/act/Sigmoid_output_0: 3c00724d
/model.4/m.0/cv3/act/Mul_output_0: 3d016f13
/model.4/Concat_output_0: 3ce927b4
/model.4/cv2/conv/Conv_output_0: 3d4dddb8
/model.4/cv2/act/Sigmoid_output_0: 3bfce425
/model.4/cv2/act/Mul_output_0: 3c31cf23
/model.5/conv/Conv_output_0: 3d37ec50
/model.5/act/Sigmoid_output_0: 3c010577
/model.5/act/Mul_output_0: 3c88c0d0
/model.6/cv1/conv/Conv_output_0: 3d2f8002
/model.6/cv1/act/Sigmoid_output_0: 3c00c757
/model.6/cv1/act/Mul_output_0: 3cb1d47a
/model.23/Add_6_output_0: 3e1d4449
/model.23/cv2.2/cv2.2.0/act/Sigmoid_output_0: 3c0633b5
/model.23/cv3.1/cv3.1.1/cv3.1.1.1/act/Sigmoid_output_0: 3c04d98b
ONNXTRT_Broadcast_381_output: 3b810a14
ONNXTRT_Broadcast_383_output: 3b810a14
/model.22/m.0/m/m.0/cv1/act/Mul_output_0: 3cd1532f
/model.6/Split_output_0: 3cc0356d
/model.23/Concat_6_output_0: 3e03296f
/model.23/Unsqueeze_10_output_0: 3e9f4871
/model.23/Transpose_output_0: 3f204a85
/model.6/Split_output_1: 3c90e496
/model.6/m.0/cv1/conv/Conv_output_0: 3cfa900f
/model.6/m.0/cv2/conv/Conv_output_0: 3d18be41
/model.6/m.0/cv1/act/Sigmoid_output_0: 3bfcf116
/model.6/m.0/cv2/act/Sigmoid_output_0: 3c00309b
/model.6/m.0/cv1/act/Mul_output_0: 3c90ece7
/model.6/m.0/cv2/act/Mul_output_0: 3cc17e83
/model.6/m.0/m/m.0/cv1/conv/Conv_output_0: 3d309103
/model.6/m.0/m/m.0/cv1/act/Sigmoid_output_0: 3bfec445
/model.6/m.0/m/m.0/cv1/act/Mul_output_0: 3c885ba8
/model.6/m.0/m/m.0/cv2/conv/Conv_output_0: 3d28e169
/model.6/m.0/m/m.0/cv2/act/Sigmoid_output_0: 3c01955e
/model.6/m.0/m/m.0/cv2/act/Mul_output_0: 3c7f42f6
/model.6/m.0/m/m.0/Add_output_0: 3d06ef31
/model.6/m.0/m/m.1/cv1/conv/Conv_output_0: 3d42b409
/model.6/m.0/m/m.1/cv1/act/Sigmoid_output_0: 3c0264b4
/model.6/m.0/m/m.1/cv1/act/Mul_output_0: 3c530f83
/model.6/m.0/m/m.1/cv2/conv/Conv_output_0: 3d91befd
/model.6/m.0/m/m.1/cv2/act/Sigmoid_output_0: 3c075d9b
/model.6/m.0/m/m.1/cv2/act/Mul_output_0: 3d4228b1
/model.6/m.0/m/m.1/Add_output_0: 3d9adfe8
/model.6/m.0/Concat_output_0: 3d404663
/model.6/m.0/cv3/conv/Conv_output_0: 3d534d48
/model.6/m.0/cv3/act/Sigmoid_output_0: 3c050f88
/model.6/m.0/cv3/act/Mul_output_0: 3ce9f8f1
/model.6/Concat_output_0: 3cb1d47a
/model.6/cv2/conv/Conv_output_0: 3d69fb23
/model.6/cv2/act/Sigmoid_output_0: 3c00b1b5
/model.6/cv2/act/Mul_output_0: 3cc15383
/model.7/conv/Conv_output_0: 3d591162
/model.7/act/Sigmoid_output_0: 3c00f60c
/model.7/act/Mul_output_0: 3cd3b411
/model.8/cv1/conv/Conv_output_0: 3d492f09
/model.8/cv1/act/Sigmoid_output_0: 3c00d25e
/model.8/cv1/act/Mul_output_0: 3ce686d5
/model.23/Range_5_output_0: 3e193bf8
ONNXTRT_Broadcast_236_output: 3b810a14
/model.23/Reshape_22_output_0: 40a0ab3f
/model.23/cv3.1/cv3.1.2/Conv_output_0: 3e1d358d
ONNXTRT_ShapeShuffle_379_output: 3c010a14
(Unnamed Layer* 616) [Constant]_output: 0
/model.8/Split_output_0: 3cd11757
/model.23/Slice_output_0: 3de43d84
/model.22/m.0/m/m.1/cv2/act/Mul_output_0: 3d2564b9
/model.23/cv4.2/cv4.2.1/conv/Conv_output_0: 3dba1f8f
/model.8/Split_output_1: 3cbff8f5
/model.8/m.0/cv1/conv/Conv_output_0: 3d50426c
/model.8/m.0/cv2/conv/Conv_output_0: 3c741a88
/model.8/m.0/cv1/act/Sigmoid_output_0: 3c00da35
/model.8/m.0/cv2/act/Sigmoid_output_0: 3bcf4d87
/model.8/m.0/cv1/act/Mul_output_0: 3cc048f9
/model.8/m.0/cv2/act/Mul_output_0: 3beb88a1
/model.8/m.0/m/m.0/cv1/conv/Conv_output_0: 3d5ac267
/model.8/m.0/m/m.0/cv1/act/Sigmoid_output_0: 3c0051e1
/model.8/m.0/m/m.0/cv1/act/Mul_output_0: 3cd1c787
/model.8/m.0/m/m.0/cv2/conv/Conv_output_0: 3d68d8cd
/model.8/m.0/m/m.0/cv2/act/Sigmoid_output_0: 3c04faf4
/model.8/m.0/m/m.0/cv2/act/Mul_output_0: 3cd32804
/model.8/m.0/m/m.0/Add_output_0: 3d5000b6
/model.8/m.0/m/m.1/cv1/conv/Conv_output_0: 3d6db729
/model.8/m.0/m/m.1/cv1/act/Sigmoid_output_0: 3c054684
/model.8/m.0/m/m.1/cv1/act/Mul_output_0: 3cd27c57
/model.8/m.0/m/m.1/cv2/conv/Conv_output_0: 3d63674a
/model.8/m.0/m/m.1/cv2/act/Sigmoid_output_0: 3c073702
/model.8/m.0/m/m.1/cv2/act/Mul_output_0: 3d27822a
/model.8/m.0/m/m.1/Add_output_0: 3d718ee0
/model.8/m.0/Concat_output_0: 3d3780f1
/model.8/m.0/cv3/conv/Conv_output_0: 3d43597a
/model.8/m.0/cv3/act/Sigmoid_output_0: 3c0456ab
/model.8/m.0/cv3/act/Mul_output_0: 3d00e38c
/model.8/Concat_output_0: 3ce686d5
/model.8/cv2/conv/Conv_output_0: 3d1c648e
/model.8/cv2/act/Sigmoid_output_0: 3c00450f
/model.8/cv2/act/Mul_output_0: 3ce640aa
/model.9/cv1/conv/Conv_output_0: 3d215e8b
/model.9/cv1/act/Sigmoid_output_0: 3c0012ff
/model.9/cv1/act/Mul_output_0: 3d10e2cb
/model.9/m/MaxPool_output_0: 3d10e2cb
/model.9/m_1/MaxPool_output_0: 3d10e2cb
/model.9/m_2/MaxPool_output_0: 3d10e2cb
/model.9/Concat_output_0: 3d271c84
/model.9/cv2/conv/Conv_output_0: 3d55b4e0
/model.9/cv2/act/Sigmoid_output_0: 3c00fe44
/model.9/cv2/act/Mul_output_0: 3cb1d6c8
/model.10/cv1/conv/Conv_output_0: 3d41c879
/model.10/cv1/act/Sigmoid_output_0: 3c00d697
/model.10/cv1/act/Mul_output_0: 3ce76318
/model.23/cv3.2/cv3.2.1/cv3.2.1.1/act/Sigmoid_output_0: 3c01c305
/model.23/cv4.2/cv4.2.0/act/Sigmoid_output_0: 3c00cc48
/model.23/Reshape_4_output_0: 3e03296f
/model.22/cv2/conv/Conv_output_0: 3d893832
/model.23/Range_4_output_0: 3e193bf8
ONNXTRT_Broadcast_507_output: 3c810a14
/model.10/Split_output_0: 3cd166d9
/model.22/m.0/m/m.0/cv2/act/Sigmoid_output_0: 3c05122d
/model.23/Split_1_output_1: 3e26ec3b
ONNXTRT_ShapeShuffle_369_output: 3c010a14
/model.10/Split_output_1: 3ce72c04
/model.23/cv4.2/cv4.2.0/conv/Conv_output_0: 3d78a5c6
/model.23/Expand_3_output_0: 3e9f4871
/model.10/m/m.0/attn/qkv/conv/Conv_output_0: 3d2ccc5f
/model.22/m.0/m/m.0/cv1/act/Sigmoid_output_0: 3c0563eb
/model.23/Concat_25_output_0: 3e1d4449
/model.23/Sub_output_0: 3f20d9e9
/model.23/cv3.1/cv3.1.1/cv3.1.1.1/conv/Conv_output_0: 3d92e0d7
/model.23/Concat_27_output_0: 3f204a85
ONNXTRT_ShapeShuffle_224_output: 3c010a14
/model.22/m.0/m/m.1/cv2/act/Sigmoid_output_0: 3c0310b7
/model.23/Add_11_output_0: 3fa0ba8e
/model.23/cv4.2/cv4.2.0/act/Mul_output_0: 3d00f948
/model.23/Constant_84_output_0_output: 3c810a14
/model.23/Slice_3_output_0: 3d7c8118
/model.22/cv2/act/Sigmoid_output_0: 3c00e6f6
ONNXTRT_Broadcast_343_output: 3c810a14
/model.22/m.0/cv3/act/Mul_output_0: 3d006550
/model.23/Split_1_output_0: 3dadacdf
/model.23/Sub_2_output_0: 3f1f4871
/model.23/cv2.1/cv2.1.1/act/Sigmoid_output_0: 3c010a14
/model.10/m/m.0/attn/Reshape_output_0: 3d2ccc5f
/model.23/Mul_7_output_0: 40a1412a
/model.22/m.0/cv1/conv/Conv_output_0: 3d19fdcd
/model.23/cv3.1/cv3.1.0/cv3.1.0.1/act/Mul_output_0: 3d0fc4c9
/model.22/m.0/m/m.1/Add_output_0: 3d998de2
/model.23/cv3.1/cv3.1.1/cv3.1.1.0/act/Sigmoid_output_0: 3c00be63
/model.23/Reshape_5_output_0: 3ddce572
/model.10/m/m.0/attn/Split_output_0: 3d00b4bc
/model.23/Unsqueeze_16_output_0: 3f204a85
/model.23/Concat_7_output_0: 3ddce572
/model.23/cv3.2/cv3.2.2/Conv_output_0: 3df60c15
/model.10/m/m.0/attn/Split_output_1: 3d19f33e
/model.23/Slice_1_output_0: 3de49e00
/model.23/Sigmoid_1_output_0: 3bff5961
/model.23/Mul_6_output_0: 3ddcc781
/model.10/m/m.0/attn/Split_output_2: 3d2648db
/model.10/m/m.0/attn/Transpose_output_0: 3d00b4bc
/model.10/m/m.0/attn/Reshape_2_output_0: 3d2648db
/model.10/m/m.0/attn/MatMul_output_0: 3eee28e4
/model.10/m/m.0/attn/pe/conv/Conv_output_0: 3d1ae056
/model.10/m/m.0/attn/Constant_6_output_0_output: 3ab67d3d
ONNXTRT_Broadcast_output: 3ab67d3d
/model.10/m/m.0/attn/Mul_1_output_0: 3da86784
/model.10/m/m.0/attn/Softmax_output: 3a2091c2
/model.10/m/m.0/attn/Softmax_output_0: 3a2091c2
/model.23/Add_10_output_0: 3f2e2c38
/model.22/m.0/cv2/conv/Conv_output_0: 3d31df2b
/model.10/m/m.0/attn/Transpose_1_output_0: 3a2091c2
/model.10/m/m.0/attn/MatMul_1_output_0: 3cdf0c96
/model.10/m/m.0/attn/Reshape_1_output_0: 3cdf0c96
/model.10/m/m.0/attn/Add_output_0: 3d09a28e
/model.10/m/m.0/attn/proj/conv/Conv_output_0: 3ce574a0
/model.10/m/m.0/Add_output_0: 3d5fde12
/model.10/m/m.0/ffn/ffn.0/conv/Conv_output_0: 3cfbc2ca
/model.10/m/m.0/ffn/ffn.0/act/Sigmoid_output_0: 3c0061fe
/model.10/m/m.0/ffn/ffn.0/act/Mul_output_0: 3ca58774
/model.10/m/m.0/ffn/ffn.1/conv/Conv_output_0: 3cf38c19
/model.10/m/m.0/Add_1_output_0: 3d487ee2
/model.10/Concat_output_0: 3d122520
/model.10/cv2/conv/Conv_output_0: 3d38f025
/model.10/cv2/act/Sigmoid_output_0: 3c00f09d
/model.10/cv2/act/Mul_output_0: 3c99654c
/model.11/Resize_output_0: 3c99654c
/model.12/Concat_output_0: 3cc1da47
/model.13/cv1/conv/Conv_output_0: 3d58c1c6
/model.13/cv1/act/Sigmoid_output_0: 3c067912
/model.13/cv1/act/Mul_output_0: 3ca532fb
/model.23/Range_3_output_0: 3e9d4449
/model.23/cv3.2/cv3.2.1/cv3.2.1.1/conv/Conv_output_0: 3d388d1a
/model.23/Mul_5_output_0: 40a0d907
/model.23/Reshape_15_output_0: 3e9f4871
/model.22/cv1/conv/Conv_output_0: 3d693174
ONNXTRT_ShapeShuffle_234_output: 3c010a14
/model.13/Split_output_0: 3ca532fb
output0: 40a0ab3f
/model.22/m.0/cv3/conv/Conv_output_0: 3d838cf5
/model.23/Expand_4_output_0: 3e1d4449
/model.13/Split_output_1: 3c73dd66
/model.13/m.0/cv1/conv/Conv_output_0: 3d28e677
/model.13/m.0/cv2/conv/Conv_output_0: 3d224ec5
/model.13/m.0/cv1/act/Sigmoid_output_0: 3bfed085
/model.13/m.0/cv2/act/Sigmoid_output_0: 3c07eeb1
/model.13/m.0/cv1/act/Mul_output_0: 3c901d09
/model.13/m.0/cv2/act/Mul_output_0: 3cb2567d
/model.13/m.0/m/m.0/cv1/conv/Conv_output_0: 3d580a0d
/model.13/m.0/m/m.0/cv1/act/Sigmoid_output_0: 3c00a192
/model.13/m.0/m/m.0/cv1/act/Mul_output_0: 3c5c2c47
/model.13/m.0/m/m.0/cv2/conv/Conv_output_0: 3d61708d
/model.13/m.0/m/m.0/cv2/act/Sigmoid_output_0: 3c0095ac
/model.13/m.0/m/m.0/cv2/act/Mul_output_0: 3cd4c748
/model.13/m.0/m/m.0/Add_output_0: 3d507f15
/model.13/m.0/m/m.1/cv1/conv/Conv_output_0: 3d64380d
/model.13/m.0/m/m.1/cv1/act/Sigmoid_output_0: 3c010df2
/model.13/m.0/m/m.1/cv1/act/Mul_output_0: 3c66e2c6
/model.13/m.0/m/m.1/cv2/conv/Conv_output_0: 3d81792c
/model.13/m.0/m/m.1/cv2/act/Sigmoid_output_0: 3c0d2976
/model.13/m.0/m/m.1/cv2/act/Mul_output_0: 3d24896c
/model.13/m.0/m/m.1/Add_output_0: 3d9acca9
/model.13/m.0/Concat_output_0: 3d6be4b4
/model.13/m.0/cv3/conv/Conv_output_0: 3d3dfe63
/model.13/m.0/cv3/act/Sigmoid_output_0: 3c08f04c
/model.13/m.0/cv3/act/Mul_output_0: 3cc11fc2
/model.13/Concat_output_0: 3c9ac9ac
/model.13/cv2/conv/Conv_output_0: 3d42cff6
/model.13/cv2/act/Sigmoid_output_0: 3c0a8a78
/model.13/cv2/act/Mul_output_0: 3c481445
/model.14/Resize_output_0: 3c481445
/model.15/Concat_output_0: 3c31cf23
/model.16/cv1/conv/Conv_output_0: 3d4d2276
/model.16/cv1/act/Sigmoid_output_0: 3bffee74
/model.16/cv1/act/Mul_output_0: 3c7fdb0c
/model.23/cv4.1/cv4.1.1/act/Mul_output_0: 3d8f9250
/model.22/m.0/m/m.1/cv1/conv/Conv_output_0: 3d88be83
/model.22/m.0/m/m.1/cv1/act/Sigmoid_output_0: 3c033ff5
ONNXTRT_Broadcast_246_output: 3e010a14
/model.23/dfl/Reshape_1_output_0: 3de43d84
/model.23/cv3.1/cv3.1.1/cv3.1.1.0/conv/Conv_output_0: 3d3e9518
/model.16/Split_output_0: 3c997e31
/model.23/Reshape_18_output_0: 3e1d4449
/model.23/Add_3_output_0: 3e9f4871
ONNXTRT_Broadcast_238_output: 3b810a14
/model.16/Split_output_1: 3c71cd80
/model.16/m.0/cv1/conv/Conv_output_0: 3ccd5022
/model.16/m.0/cv2/conv/Conv_output_0: 3d67f91f
/model.16/m.0/cv1/act/Sigmoid_output_0: 3be8e694
/model.16/m.0/cv2/act/Sigmoid_output_0: 3c0450a0
/model.16/m.0/cv1/act/Mul_output_0: 3c5b08a5
/model.16/m.0/cv2/act/Mul_output_0: 3d02bdc3
/model.16/m.0/m/m.0/cv1/conv/Conv_output_0: 3d2d900b
/model.16/m.0/m/m.0/cv1/act/Sigmoid_output_0: 3bfdbc2d
/model.16/m.0/m/m.0/cv1/act/Mul_output_0: 3c729e6e
/model.16/m.0/m/m.0/cv2/conv/Conv_output_0: 3d75452a
/model.16/m.0/m/m.0/cv2/act/Sigmoid_output_0: 3c00cb63
/model.16/m.0/m/m.0/cv2/act/Mul_output_0: 3c99ec3a
/model.16/m.0/m/m.0/Add_output_0: 3d30668b
/model.16/m.0/m/m.1/cv1/conv/Conv_output_0: 3d81b104
/model.16/m.0/m/m.1/cv1/act/Sigmoid_output_0: 3c00a2fe
/model.16/m.0/m/m.1/cv1/act/Mul_output_0: 3c73093b
/model.16/m.0/m/m.1/cv2/conv/Conv_output_0: 3dcedd96
/model.16/m.0/m/m.1/cv2/act/Sigmoid_output_0: 3c010a13
/model.16/m.0/m/m.1/cv2/act/Mul_output_0: 3d6ba764
/model.16/m.0/m/m.1/Add_output_0: 3dbaec19
/model.16/m.0/Concat_output_0: 3d92846a
/model.16/m.0/cv3/conv/Conv_output_0: 3da6ab1f
/model.16/m.0/cv3/act/Sigmoid_output_0: 3c00a8b6
/model.16/m.0/cv3/act/Mul_output_0: 3cd33015
/model.16/Concat_output_0: 3cb2b73b
/model.16/cv2/conv/Conv_output_0: 3d9254d1
/model.16/cv2/act/Sigmoid_output_0: 3c009923
/model.16/cv2/act/Mul_output_0: 3cb4ca1b
/model.17/conv/Conv_output_0: 3d84e077
/model.23/cv2.1/cv2.1.2/Conv_output_0: 3dabf07d
ONNXTRT_Broadcast_505_output: 3e810a14
/model.23/cv4.0/cv4.0.0/conv/Conv_output_0: 3dfac5cc
/model.23/cv2.0/cv2.0.0/conv/Conv_output_0: 3d626f29
/model.23/cv3.0/cv3.0.0/cv3.0.0.0/conv/Conv_output_0: 3d266110
/model.17/act/Sigmoid_output_0: 3c00c73c
/model.23/Add_4_output_0: 3e9f4871
/model.23/cv4.0/cv4.0.0/act/Sigmoid_output_0: 3c011200
/model.23/cv2.0/cv2.0.0/act/Sigmoid_output_0: 3c0072f0
/model.23/cv3.0/cv3.0.0/cv3.0.0.0/act/Sigmoid_output_0: 3c02b0e3
/model.17/act/Mul_output_0: 3cd1ca67
/model.23/cv4.0/cv4.0.0/act/Mul_output_0: 3d6d8b32
/model.22/m.0/cv3/act/Sigmoid_output_0: 3c0410f5
/model.23/cv2.0/cv2.0.0/act/Mul_output_0: 3ca4e94a
/model.23/cv3.0/cv3.0.0/cv3.0.0.0/act/Mul_output_0: 3ce36bdb
/model.18/Concat_output_0: 3c9085be
/model.23/cv4.0/cv4.0.1/conv/Conv_output_0: 3db36133
/model.23/Reshape_20_output_0: 3e1d4449
/model.22/m.0/m/m.0/cv1/conv/Conv_output_0: 3d6c176e
/model.23/Concat_20_output_0: 3e9f4871
/model.23/cv2.0/cv2.0.1/conv/Conv_output_0: 3e6f8717
/model.23/cv3.0/cv3.0.0/cv3.0.0.1/conv/Conv_output_0: 3d084cbd
/model.22/m.0/cv2/act/Sigmoid_output_0: 3c0e59d5
/model.23/Transpose_1_output_0: 3e810a14
/model.23/Add_7_output_0: 3e1d4449
/model.19/cv1/conv/Conv_output_0: 3d5ef9a4
/model.23/cv4.0/cv4.0.1/act/Sigmoid_output_0: 3c010a14
/model.23/cv2.0/cv2.0.1/act/Sigmoid_output_0: 3c010a14
/model.23/cv3.0/cv3.0.0/cv3.0.0.1/act/Sigmoid_output_0: 3c000a69
/model.19/cv1/act/Sigmoid_output_0: 3c009d7d
/model.23/cv4.0/cv4.0.1/act/Mul_output_0: 3d67cfd3
/model.23/cv2.0/cv2.0.1/act/Mul_output_0: 3dc79e64
/model.23/cv3.0/cv3.0.0/cv3.0.0.1/act/Mul_output_0: 3cc09df8
/model.19/cv1/act/Mul_output_0: 3c9970e8
/model.23/cv4.0/cv4.0.2/Conv_output_0: 3d46fd7c
/model.23/cv2.0/cv2.0.2/Conv_output_0: 3d9cd17d
/model.23/cv3.0/cv3.0.1/cv3.0.1.0/conv/Conv_output_0: 3d2a6df9
/model.23/Slice_2_output_0: 3d5cc781
ONNXTRT_ShapeShuffle_241_output: 0
/model.23/cv3.1/cv3.1.0/cv3.1.0.1/conv/Conv_output_0: 3d55925c
/model.23/Reshape_14_output_0: 3e9f4871
/model.23/dfl/Softmax_output_0: 3bc6faee
/model.23/ConstantOfShape_1_output_0: 0
/model.19/Split_output_0: 3c9970e8
/model.23/Add_12_output_0: 3f212d0c
ONNXTRT_Broadcast_491_output: 3b810a14
/model.22/m.0/Concat_output_0: 3d8f8f97
/model.19/Split_output_1: 3c90471f
/model.23/Reshape_output_0: 3d46fd7c
/model.23/cv3.0/cv3.0.1/cv3.0.1.0/act/Sigmoid_output_0: 3c0039c2
/model.19/m.0/cv1/conv/Conv_output_0: 3ce3787d
/model.19/m.0/cv2/conv/Conv_output_0: 3d2ad004
/model.23/cv3.0/cv3.0.1/cv3.0.1.0/act/Mul_output_0: 3d007a1d
/model.19/m.0/cv1/act/Sigmoid_output_0: 3bf24308
/model.19/m.0/cv2/act/Sigmoid_output_0: 3c00d2b8
/model.23/cv3.0/cv3.0.1/cv3.0.1.1/conv/Conv_output_0: 3d74b9ee
/model.19/m.0/cv1/act/Mul_output_0: 3c3f7c16
/model.19/m.0/cv2/act/Mul_output_0: 3cd0d9cc
/model.23/cv3.0/cv3.0.1/cv3.0.1.1/act/Sigmoid_output_0: 3c013243
/model.19/m.0/m/m.0/cv1/conv/Conv_output_0: 3d4c03a7
/model.23/cv3.0/cv3.0.1/cv3.0.1.1/act/Mul_output_0: 3d102cb8
/model.19/m.0/m/m.0/cv1/act/Sigmoid_output_0: 3c00987b
/model.23/cv3.0/cv3.0.2/Conv_output_0: 3e2110db
/model.19/m.0/m/m.0/cv1/act/Mul_output_0: 3cb29018
/model.23/Concat_5_output_0: 3e01c7fd
/model.19/m.0/m/m.0/cv2/conv/Conv_output_0: 3d57ef4b
/model.23/cv3.2/cv3.2.0/cv3.2.0.0/act/Sigmoid_output_0: 3c01f9d2
/model.22/m.0/m/m.0/cv2/act/Mul_output_0: 3d10a97f
/model.19/m.0/m/m.0/cv2/act/Sigmoid_output_0: 3c00e7e7
/model.22/Split_output_1: 3ce64e54
/model.23/Expand_2_output_0: 3e9f4871
/model.22/m.0/m/m.1/cv1/act/Mul_output_0: 3cc1dcd4
/model.19/m.0/m/m.0/cv2/act/Mul_output_0: 3ce7ccc7
/model.23/cv3.2/cv3.2.1/cv3.2.1.1/act/Mul_output_0: 3d104937
/model.23/cv3.1/cv3.1.1/cv3.1.1.1/act/Mul_output_0: 3d289656
/model.22/Concat_output_0: 3d2769ea
/model.23/Concat_31_output_0: 40a0ab3f
/model.19/m.0/m/m.0/Add_output_0: 3d4fad5b
/model.23/Sub_1_output_0: 3e594177
/model.22/cv1/act/Mul_output_0: 3ce730bc
/model.23/Constant_23_output_0_output: 0
/model.23/Constant_24_output_0_output: 3c010a14
/model.22/Split_output_0: 3d00b3ab
/model.23/dfl/conv/Conv_output_0: 3de43d84
/model.23/Unsqueeze_13_output_0: 3e1d4449
/model.22/cv1/act/Sigmoid_output_0: 3c00c36a
/model.23/Reshape_21_output_0: 3d71ba31
/model.23/Sigmoid_output_0: 3b20673f
/model.23/cv3.1/cv3.1.0/cv3.1.0.1/act/Sigmoid_output_0: 3c04c3e9
/model.23/Range_output_0: 3f1f4871
ONNXTRT_ShapeShuffle_147_output: 3c010a14
/model.23/Concat_29_output_0: 3f20cedf
/model.23/Expand_5_output_0: 3e1d4449
/model.23/cv4.1/cv4.1.1/act/Sigmoid_output_0: 3c0109cb
/model.23/Squeeze_1_output_0_output: 3e010a14
/model.23/Concat_28_output_0: 3e810a14
/model.23/Add_5_output_0: 3e010a14
/model.22/m.0/m/m.1/cv2/conv/Conv_output_0: 3d8f1cd5
/model.23/Range_1_output_0: 3f1f4871
ONNXTRT_ShapeShuffle_157_output: 3c010a14
/model.23/cv2.2/cv2.2.0/act/Mul_output_0: 3d41cb62
/model.19/m.0/m/m.1/cv1/conv/Conv_output_0: 3d69d81a
/model.23/Reshape_3_output_0: 3e01c7fd
/model.23/Constant_25_output_0_output: 3b810a14
ONNXTRT_Broadcast_160_output: 3b810a14
/model.23/Add_output_0: 3f204a85
ONNXTRT_Broadcast_162_output: 3b810a14
/model.23/Add_1_output_0: 3f204a85
/model.23/Div_1_output_0: 3f20ba8e
ONNXTRT_Broadcast_515_output: 3e810a14
/model.19/m.0/m/m.1/cv1/act/Sigmoid_output_0: 3c00a03d
(Unnamed Layer* 469) [Constant]_output: 0
ONNXTRT_ShapeShuffle_165_output: 0
/model.23/ConstantOfShape_output_0: 0
/model.22/cv2/act/Mul_output_0: 3cff8fa5
/model.23/cv3.2/cv3.2.1/cv3.2.1.0/act/Sigmoid_output_0: 3c03726a
/model.23/Concat_11_output_0: 3e01c7fd
/model.23/Reshape_2_output_0: 3d3d43b3
/model.23/Reshape_8_output_0: 3f204a85
/model.23/Reshape_9_output_0: 3f204a85
/model.19/m.0/m/m.1/cv1/act/Mul_output_0: 3ca52d0e
/model.23/Squeeze_output_0_output: 3d810a14
ONNXTRT_Broadcast_170_output: 3d810a14
/model.23/Add_2_output_0: 3d810a14
/model.23/cv3.2/cv3.2.1/cv3.2.1.0/conv/Conv_output_0: 3d14948d
/model.19/m.0/m/m.1/cv2/conv/Conv_output_0: 3d9d33a9
/model.23/cv4.2/cv4.2.2/Conv_output_0: 3d3d43b3
/model.23/cv3.2/cv3.2.0/cv3.2.0.1/act/Mul_output_0: 3d00369a
/model.23/Add_8_output_0: 3e810a14
/model.23/Concat_4_output_0: 3d71ba31
/model.23/cv4.2/cv4.2.1/act/Mul_output_0: 3d907cec
/model.23/cv2.2/cv2.2.2/Conv_output_0: 3db868da
/model.23/cv3.2/cv3.2.0/cv3.2.0.1/act/Sigmoid_output_0: 3c006657
/model.23/cv3.2/cv3.2.1/cv3.2.1.0/act/Mul_output_0: 3cd2f187
/model.23/cv2.1/cv2.1.1/act/Mul_output_0: 3dc4307f
/model.23/cv3.2/cv3.2.0/cv3.2.0.0/act/Mul_output_0: 3ca12543
/model.23/Expand_output_0: 3f204a85
/model.22/m.0/cv2/act/Mul_output_0: 3d10a611
/model.23/Reshape_13_output_0: 3e9f4871
/model.23/cv2.2/cv2.2.1/act/Sigmoid_output_0: 3c010a14
/model.23/dfl/Softmax_output: 3bc6faee
/model.23/cv2.2/cv2.2.1/conv/Conv_output_0: 3e42064e
/model.23/cv3.2/cv3.2.0/cv3.2.0.1/conv/Conv_output_0: 3d0b61a1
/model.23/cv4.1/cv4.1.2/Conv_output_0: 3d94211e
/model.23/Unsqueeze_14_output_0: 3e1d4449
ONNXTRT_Broadcast_498_output: 3f1f4871
/model.23/cv4.2/cv4.2.1/act/Sigmoid_output_0: 3c0109f6
/model.23/Expand_1_output_0: 3f204a85
/model.19/m.0/m/m.1/cv2/act/Sigmoid_output_0: 3c010a08
/model.23/Reshape_1_output_0: 3d94211e
/model.23/Unsqueeze_7_output_0: 3f204a85
/model.23/Unsqueeze_8_output_0: 3f204a85
/model.19/m.0/m/m.1/cv2/act/Mul_output_0: 3d240826
/model.23/Concat_15_output_0: 3f204a85
/model.19/m.0/m/m.1/Add_output_0: 3d8d5a97
/model.23/Reshape_10_output_0: 3f204a85
/model.19/m.0/Concat_output_0: 3d69d6ec
/model.19/m.0/cv3/conv/Conv_output_0: 3da5dd68
/model.19/m.0/cv3/act/Sigmoid_output_0: 3c011184
/model.19/m.0/cv3/act/Mul_output_0: 3d287f55
/model.19/Concat_output_0: 3ceb0a81
/model.19/cv2/conv/Conv_output_0: 3d8bd2ae
/model.19/cv2/act/Sigmoid_output_0: 3c00f32c
/model.19/cv2/act/Mul_output_0: 3ce831f1
/model.20/conv/Conv_output_0: 3d645ab3
/model.23/cv4.1/cv4.1.0/conv/Conv_output_0: 3db7949f
/model.23/cv2.1/cv2.1.0/conv/Conv_output_0: 3d74663c
/model.23/cv3.1/cv3.1.0/cv3.1.0.0/conv/Conv_output_0: 3d226f2c
/model.20/act/Sigmoid_output_0: 3c010125
/model.23/cv4.1/cv4.1.0/act/Sigmoid_output_0: 3c0109b3
/model.23/cv2.1/cv2.1.0/act/Sigmoid_output_0: 3c0232bf
/model.23/cv3.1/cv3.1.0/cv3.1.0.0/act/Sigmoid_output_0: 3c02e916
/model.20/act/Mul_output_0: 3d110bee
/model.23/cv4.1/cv4.1.0/act/Mul_output_0: 3d431817
/model.23/cv2.1/cv2.1.0/act/Mul_output_0: 3d018967
/model.23/cv3.1/cv3.1.0/cv3.1.0.0/act/Mul_output_0: 3cc2f212
/model.21/Concat_output_0: 3ce7ee79
/model.23/cv4.1/cv4.1.1/conv/Conv_output_0: 3db76008
/model.23/cv2.1/cv2.1.1/conv/Conv_output_0: 3e8a225c
